#include "network_data.h"

ai_handle ai_network_data_weights_get(void)
{

  AI_ALIGNED(4)
  static const ai_u8 s_network_weights[ 128 ] = {
    0x37, 0x46, 0x7b, 0x60, 0x58, 0x52, 0x74, 0x7f, 0x6d, 0x41,
    0xa1, 0x03, 0xdd, 0x81, 0xb5, 0x1c, 0xe8, 0xaf, 0xe9, 0xa4,
    0x9c, 0xaf, 0x81, 0xaa, 0xe2, 0xad, 0x8a, 0x8d, 0x81, 0xe8,
    0x01, 0xde, 0xb6, 0xc6, 0xda, 0x90, 0x2f, 0x7f, 0x5b, 0x43,
    0x4b, 0x48, 0x38, 0x6c, 0x6f, 0x5f, 0x70, 0x33, 0x6d, 0x7e,
    0x40, 0x7f, 0x24, 0x4e, 0xf1, 0x02, 0x8e, 0xe4, 0x81, 0x23,
    0x9a, 0xfa, 0xc9, 0x81, 0xa2, 0xdc, 0xf8, 0x05, 0x87, 0x13,
    0xb1, 0x03, 0xde, 0xe0, 0xff, 0xff, 0x64, 0xf0, 0xff, 0xff,
    0xad, 0xd3, 0x00, 0x00, 0x4d, 0x9e, 0x00, 0x00, 0x98, 0xe4,
    0xff, 0xff, 0x80, 0xe3, 0xff, 0xff, 0x2c, 0x7d, 0x00, 0x00,
    0x88, 0x7c, 0x00, 0x00, 0x2c, 0x1c, 0x94, 0x81, 0x5f, 0x1a,
    0x9a, 0x8d, 0xc3, 0x1a, 0x49, 0x6e, 0xea, 0x8b, 0x51,
    0x63, 0x7a, 0xf8, 0xff, 0xff, 0x86, 0x07, 0x00, 0x00
  };

  return AI_HANDLE_PTR(s_network_weights);

}

