#include "sine_model_data.h"

ai_handle ai_sine_model_data_weights_get(void)
{

  AI_ALIGNED(4)
  static const ai_u8 s_sine_model_weights[ 1284 ] = {
    0xe0, 0x51, 0x8c, 0xbc, 0x48, 0x37, 0xb8, 0xbd, 0x4e, 0xb5,
    0x34, 0xbe, 0x8b, 0x76, 0xb8, 0x3e, 0x5a, 0xb6, 0xdc, 0xbe,
    0x20, 0x71, 0x21, 0xba, 0x03, 0xce, 0x90, 0xbe, 0xd4, 0x58,
    0xea, 0xbe, 0x38, 0xaf, 0x28, 0xbe, 0xbd, 0xb7, 0xba, 0x3e,
    0x81, 0x49, 0x32, 0x3f, 0xb6, 0xef, 0xf3, 0xbe, 0x9f, 0x0e,
    0x32, 0x3e, 0x99, 0xfe, 0xd4, 0xbe, 0xa1, 0xe3, 0x8e, 0xbe,
    0x48, 0x1d, 0x6c, 0xbe, 0x00, 0x00, 0x00, 0x00, 0x00, 0x00,
    0x00, 0x00, 0x00, 0x00, 0x00, 0x00, 0xf8, 0xda, 0x42, 0x3f,
    0x00, 0x00, 0x00, 0x00, 0xba, 0x8e, 0x96, 0x3f, 0x00, 0x00,
    0x00, 0x00, 0x00, 0x00, 0x00, 0x00, 0x00, 0x00, 0x00, 0x00,
    0x19, 0x54, 0x1c, 0xbf, 0x79, 0x2a, 0x74, 0xbd, 0x00, 0x00,
    0x00, 0x00, 0xfd, 0xf3, 0xd2, 0xbe, 0x00, 0x00, 0x00, 0x00,
    0x00, 0x00, 0x00, 0x00, 0x00, 0x00, 0x00, 0x00, 0x58, 0x7d,
    0x6c, 0xbe, 0xc0, 0x29, 0x6b, 0x3d, 0x88, 0x7f, 0x9a, 0xbe,
    0xc7, 0x11, 0x8c, 0x3e, 0x5a, 0x51, 0x09, 0x3e, 0xc0, 0x29,
    0x58, 0x3e, 0x5e, 0x4e, 0x4e, 0xbe, 0xf6, 0x5c, 0x99, 0xbe,
    0x23, 0xaf, 0x98, 0xbe, 0xc0, 0xcd, 0x3d, 0x3d, 0xf6, 0x02,
    0x47, 0xbf, 0x96, 0x49, 0x4a, 0xbe, 0x21, 0xfb, 0xa2, 0xbe,
    0x14, 0x85, 0xe6, 0x3d, 0x3b, 0xd2, 0xa3, 0x3e, 0x50, 0xea,
    0x82, 0x3d, 0x36, 0xd4, 0xc6, 0xbe, 0xf4, 0x89, 0xd8, 0x3d,
    0xb9, 0xe5, 0xb2, 0x3e, 0xa5, 0xa4, 0x1b, 0x3d, 0x97, 0x35,
    0x8d, 0x3e, 0xeb, 0x2a, 0x9e, 0x3e, 0x1a, 0xb9, 0x6c, 0x3e,
    0x70, 0x09, 0xbe, 0xbc, 0xdc, 0x91, 0xda, 0xbe, 0x13, 0xef,
    0xb4, 0xbe, 0x7d, 0x5a, 0xfe, 0xbe, 0xf0, 0xa0, 0xc1, 0xbe,
    0xc2, 0x4a, 0xd1, 0x3e, 0x38, 0x34, 0xa3, 0xbe, 0x65, 0x1e,
    0x4d, 0xbe, 0x03, 0xf4, 0xa3, 0x3e, 0x24, 0x25, 0xa2, 0xbd,
    0x33, 0x26, 0xda, 0x3e, 0x36, 0x39, 0x68, 0x3e, 0xd5, 0xbf,
    0xc5, 0x3e, 0x0a, 0x88, 0xac, 0xbe, 0x52, 0x1b, 0x56, 0x3f,
    0x20, 0xae, 0x9a, 0xbc, 0x88, 0xbb, 0xb2, 0xbd, 0xe8, 0xae,
    0x14, 0xbd, 0x8e, 0xb8, 0x87, 0xbf, 0x71, 0x4b, 0xe0, 0xbe,
    0x7b, 0xa1, 0xa0, 0x3e, 0xc4, 0xb4, 0x95, 0xbf, 0x08, 0xa4,
    0xf7, 0xbd, 0x06, 0x3d, 0x2e, 0x3e, 0xe3, 0x81, 0xc4, 0x3e,
    0xd7, 0xdc, 0xb6, 0xbe, 0xec, 0x1f, 0xb8, 0x3d, 0x5f, 0xe5,
    0xc2, 0x3e, 0x55, 0xad, 0xb3, 0x3e, 0x80, 0x2d, 0x8c, 0xbd,
    0x3a, 0xf6, 0x2e, 0xbe, 0xde, 0xa8, 0x6b, 0x3e, 0x00, 0x0e,
    0x1f, 0xbe, 0x74, 0x49, 0xb6, 0xbe, 0x22, 0x72, 0x15, 0xbe,
    0xa4, 0x73, 0xbb, 0x3e, 0xb7, 0x6a, 0xaf, 0x3e, 0x9f, 0x00,
    0x13, 0xbd, 0xa2, 0xe5, 0x7b, 0x3e, 0x40, 0x55, 0x99, 0x3c,
    0xd8, 0xa8, 0x68, 0xbe, 0x05, 0x00, 0x80, 0x3e, 0x83, 0x91,
    0xc6, 0x3e, 0xc1, 0x5f, 0xd0, 0x3e, 0x84, 0xd0, 0x24, 0xbe,
    0xed, 0xd6, 0x48, 0xbe, 0xb8, 0x30, 0x6a, 0xbe, 0xf2, 0x76,
    0x2d, 0x3e, 0xaf, 0x4a, 0x8f, 0x3e, 0xb3, 0x4b, 0xa9, 0x3e,
    0xba, 0xac, 0x3c, 0xbe, 0x70, 0xe5, 0x8d, 0xbc, 0x1e, 0x5c,
    0x37, 0x3e, 0x88, 0x90, 0xdf, 0xbd, 0xa8, 0x55, 0x19, 0xbe,
    0xae, 0xc0, 0x17, 0xbe, 0xd4, 0xf6, 0x9d, 0x3d, 0xa1, 0xfc,
    0x8f, 0x3e, 0x5e, 0xdb, 0x10, 0xbe, 0x8c, 0x27, 0x8b, 0xbe,
    0x80, 0x07, 0x2a, 0x3d, 0x35, 0x20, 0xb5, 0x3e, 0xf3, 0xbd,
    0x9a, 0xbe, 0x4e, 0x9f, 0x1e, 0x3e, 0xb8, 0xa0, 0x24, 0xbe,
    0x33, 0xce, 0xd3, 0x3e, 0x4f, 0x6b, 0x27, 0xbe, 0x02, 0xb9,
    0x36, 0xbc, 0xd7, 0xf4, 0x8e, 0x3e, 0x16, 0x67, 0x26, 0xbe,
    0xb8, 0x53, 0x3b, 0xbd, 0x8f, 0x26, 0xbc, 0xbe, 0x7b, 0xce,
    0x94, 0xbe, 0x5f, 0xb5, 0xc1, 0xbe, 0x10, 0xbb, 0xe8, 0xbc,
    0x00, 0xc8, 0x88, 0xbc, 0x7b, 0xff, 0x1e, 0x3d, 0x46, 0xc9,
    0xbb, 0xbe, 0xef, 0xf7, 0x65, 0xbe, 0xba, 0x46, 0x08, 0xbe,
    0x4a, 0xa8, 0x2f, 0xbe, 0x0e, 0x57, 0x8f, 0xbe, 0x94, 0x3f,
    0xe6, 0x3e, 0xba, 0x64, 0x4d, 0x3e, 0xe0, 0xf0, 0x2d, 0x3d,
    0xa8, 0xac, 0xba, 0x3e, 0xa0, 0x53, 0x20, 0xbe, 0x46, 0x2b,
    0x09, 0x3e, 0xd7, 0x76, 0xc0, 0x3e, 0xd2, 0xbf, 0x24, 0x3e,
    0x80, 0xa4, 0x16, 0xbc, 0x7e, 0x82, 0x52, 0x3e, 0x97, 0x8b,
    0x85, 0xbe, 0x30, 0x8b, 0x0f, 0xbe, 0xe5, 0x9c, 0x9a, 0x3e,
    0x8e, 0x7d, 0xb7, 0xbe, 0x96, 0xd8, 0x96, 0xbe, 0xca, 0x63,
    0x32, 0xbe, 0x9d, 0xa9, 0x8b, 0x3e, 0xae, 0x43, 0xe8, 0xbe,
    0x2f, 0xd9, 0xcf, 0x3e, 0x5d, 0x51, 0x9b, 0x3e, 0x09, 0xfa,
    0xab, 0x3e, 0xa2, 0xa1, 0x49, 0x3e, 0x01, 0xf8, 0xd6, 0xbe,
    0x04, 0xf4, 0x91, 0x3d, 0x03, 0xfc, 0x86, 0x3e, 0xff, 0x09,
    0xb0, 0x3e, 0x2c, 0x95, 0xbe, 0x3d, 0xdd, 0x6d, 0x91, 0x3e,
    0xf5, 0x2a, 0xc1, 0xbd, 0xa9, 0x86, 0x9d, 0x3e, 0x76, 0x56,
    0x72, 0xbe, 0x92, 0x45, 0x6f, 0x3e, 0x90, 0x26, 0x15, 0x3f,
    0xd4, 0xab, 0x37, 0x3e, 0x6c, 0x64, 0xe2, 0xbd, 0x5b, 0x76,
    0x09, 0x3f, 0x50, 0x5e, 0x00, 0xbd, 0x10, 0x29, 0xf3, 0xbc,
    0x4b, 0x5b, 0xdb, 0x3e, 0x94, 0x2d, 0x9a, 0xbe, 0xa8, 0x6d,
    0x50, 0xbd, 0x8f, 0x60, 0xca, 0x3e, 0xdc, 0xaa, 0x02, 0xbe,
    0x74, 0xa3, 0xb1, 0xbe, 0xa6, 0xfc, 0xdb, 0x3e, 0x25, 0x56,
    0x94, 0xbe, 0x86, 0x8c, 0xba, 0xbe, 0x84, 0xca, 0xb3, 0xbe,
    0xa3, 0x9a, 0xfb, 0xbe, 0xba, 0xf1, 0x9d, 0xbe, 0x63, 0x26,
    0xb0, 0x3e, 0xee, 0x27, 0x1a, 0xbd, 0x20, 0x8b, 0x86, 0x3d,
    0xeb, 0xbd, 0x76, 0xbe, 0x99, 0xef, 0x8f, 0x3e, 0xbe, 0x80,
    0x40, 0xbe, 0xf8, 0xb4, 0x66, 0x3d, 0x08, 0xef, 0xfe, 0xbd,
    0x72, 0x68, 0x6f, 0x3e, 0xd2, 0xe9, 0xa5, 0xbe, 0x10, 0xe4,
    0xeb, 0x3d, 0x6b, 0x10, 0xa4, 0xbe, 0xec, 0xff, 0xea, 0xbd,
    0xa0, 0x96, 0x81, 0xbd, 0x17, 0x6b, 0xa9, 0xbe, 0x90, 0x08,
    0xc8, 0x3e, 0x02, 0x54, 0x8a, 0xbe, 0x27, 0xa4, 0x08, 0xbd,
    0x91, 0xaa, 0x94, 0x3e, 0xa8, 0x0a, 0x87, 0xbd, 0xf9, 0x24,
    0x8f, 0x3e, 0x40, 0xc6, 0xa3, 0x3c, 0x3a, 0x95, 0x09, 0x3e,
    0xf0, 0x3a, 0xde, 0x3c, 0xb3, 0x01, 0xd6, 0x3d, 0x16, 0x37,
    0xc5, 0xbe, 0x7d, 0x14, 0xeb, 0x3d, 0xc7, 0x46, 0x83, 0x3e,
    0xdc, 0x1b, 0xa1, 0xbd, 0x0a, 0x7b, 0x40, 0x3e, 0x33, 0x35,
    0xee, 0xbe, 0x26, 0xa8, 0x5a, 0xbf, 0x5f, 0xff, 0xc5, 0xbe,
    0xc7, 0xd2, 0xb5, 0x3e, 0x04, 0xfc, 0xa1, 0x3d, 0x3b, 0x1f,
    0x96, 0xbe, 0x99, 0x20, 0x91, 0xbe, 0xd0, 0x90, 0x1a, 0x3d,
    0x40, 0x39, 0xd4, 0xbc, 0x1a, 0x7f, 0x4f, 0xbe, 0x1b, 0x60,
    0x2c, 0x3e, 0xf0, 0x6a, 0xef, 0xbd, 0x6c, 0x4a, 0xed, 0x3e,
    0x80, 0x80, 0x04, 0xbb, 0x79, 0x1f, 0x81, 0xbe, 0xaf, 0x9c,
    0xc0, 0xbe, 0xa4, 0x9f, 0x85, 0xbc, 0x95, 0xdf, 0x15, 0xbe,
    0xf4, 0x27, 0x49, 0xbe, 0x71, 0x60, 0x14, 0xbe, 0x76, 0x4f,
    0x15, 0x3e, 0xd5, 0x6d, 0xa7, 0x3e, 0xb1, 0xc5, 0xce, 0x3e,
    0x85, 0x97, 0xbe, 0x3e, 0x09, 0xd1, 0xbf, 0x3e, 0x91, 0xdf,
    0x98, 0x3e, 0x1e, 0xf9, 0x34, 0x3d, 0x41, 0x04, 0xcb, 0x3e,
    0xfc, 0xf7, 0xff, 0x3e, 0x45, 0x89, 0xa4, 0x3e, 0xda, 0xc7,
    0x17, 0xbe, 0x6c, 0xd6, 0xc0, 0x3d, 0x3d, 0x06, 0x9c, 0x3c,
    0x0f, 0x75, 0xfd, 0xbc, 0x82, 0xab, 0x74, 0x3e, 0x8b, 0xdd,
    0xd3, 0xbe, 0xe6, 0xd0, 0x2d, 0x3e, 0x58, 0xd1, 0x77, 0xbd,
    0x44, 0xa3, 0xa3, 0xbd, 0x10, 0xc2, 0x08, 0x3d, 0xb0, 0x5c,
    0xd0, 0xbc, 0x48, 0x51, 0x27, 0xbd, 0xb7, 0xe3, 0xd0, 0xbe,
    0xef, 0xf1, 0xdc, 0x3e, 0x67, 0x24, 0x8d, 0x3e, 0x58, 0x0a,
    0x2b, 0xbd, 0x75, 0x1b, 0xae, 0x3e, 0x11, 0x81, 0x84, 0x3e,
    0xd0, 0xba, 0x37, 0xbd, 0x44, 0x6a, 0xe8, 0x3d, 0xd6, 0x6e,
    0x45, 0x3e, 0x64, 0xd4, 0xc2, 0x3d, 0x64, 0x64, 0xb8, 0xbe,
    0xf7, 0xa2, 0x9c, 0x3e, 0xd6, 0x1a, 0xdd, 0xbe, 0xb4, 0x7f,
    0xf0, 0x3d, 0xc2, 0xc9, 0x30, 0xbe, 0xa2, 0x17, 0x22, 0xbe,
    0x50, 0x45, 0xb5, 0x3e, 0x66, 0x05, 0x8e, 0xbe, 0xb3, 0x8a,
    0x27, 0x3e, 0xd5, 0xe7, 0xc1, 0xbe, 0x99, 0x69, 0xbd, 0x3e,
    0x02, 0x77, 0x4f, 0x3e, 0x2c, 0x2e, 0xe9, 0xbd, 0xe4, 0xc1,
    0x3d, 0x3e, 0x20, 0x72, 0xb4, 0xbd, 0xe7, 0xdf, 0xf5, 0xbd,
    0x49, 0x49, 0xd7, 0x3e, 0xb2, 0x64, 0x37, 0xbe, 0xff, 0xdb,
    0xd7, 0x3e, 0x1f, 0x3e, 0x2f, 0x3e, 0x35, 0x7f, 0x8e, 0x3e,
    0xf0, 0xc1, 0x38, 0x3f, 0x45, 0x79, 0xd5, 0x3c, 0x00, 0x00,
    0x00, 0x00, 0x96, 0x3c, 0x4f, 0xbb, 0xcb, 0x40, 0x2b, 0xbe,
    0xc5, 0xa0, 0x87, 0x3d, 0x7d, 0x86, 0x1b, 0xbe, 0x7d, 0xd8,
    0x2e, 0x3e, 0x24, 0x9a, 0x15, 0x3d, 0x06, 0x68, 0x84, 0x3e,
    0x46, 0x33, 0x18, 0x3d, 0xa8, 0x02, 0x10, 0x3d, 0x14, 0x6c,
    0x9b, 0xbc, 0xc4, 0x8e, 0x0c, 0xbe, 0x4c, 0x25, 0x18, 0xbf,
    0x05, 0xf3, 0x40, 0xbf, 0x02, 0x01, 0xbd, 0x3f, 0xb4, 0x1c,
    0xb0, 0xbd, 0xa6, 0xbb, 0x16, 0xbf, 0xad, 0x6e, 0x03,
    0xbf, 0x61, 0xca, 0x90, 0x3e, 0xa8, 0x89, 0xa0, 0xbe,
    0xc7, 0x51, 0x43, 0x3e, 0x60, 0xdc, 0xe5, 0xbe, 0xd7,
    0x26, 0x17, 0xbf, 0x41, 0xc1, 0x76, 0xbf, 0x07, 0x51,
    0x3c, 0xbf, 0x71, 0xca, 0x3c, 0xbf, 0x45, 0x8f, 0xf4,
    0x3e, 0xa4, 0xc5, 0xd3, 0x3e, 0x18, 0x93, 0x0c, 0xbe
  };

  return AI_HANDLE_PTR(s_sine_model_weights);

}

